14
1a
0b
1c
12
f1
c3
a2
cc
23
2b
39
ed
0a
f6
f6
fe
fc
f1
f8
f2
d3
ff
2d
fa
12
33
0f
eb
07
15
cf
c9
ec
9b
af
30
0d
ff
05
11
13
d1
94
b5
36
30
17
00
1a
f2
b1
c2
e2
3b
3d
26
17
0a
dc
d8
cb
e8
9f
c3
26
7f
62
7a
5d
e8
9a
15
23
f6
06
1e
0b
de
47
2c
fd
0a
ee
e2
02
c1
fe
ee
d3
f8
00
da
10
be
f4
1a
c0
d6
3d
2f
22
0c
6b
43
ee
52
44
22
4b
20
e0
50
50
f2
39
5a
11
ed
c8
03
08
bb
ea
2a
e9
1d
f4
d9
05
19
ca
02
1a
de
ea
d3
21
e5
80
aa
b6
a2
e1
fb
2d
46
bc
e4
14
e7
aa
c2
c1
db
26
8e
b3
2e
01
03
e9
14
15
ee
08
1b
04
1f
06
18
eb
06
4b
05
ee
0e
01
03
b0
d9
dd
e9
d6
a3
d6
fd
d8
d4
05
27
42
c2
ff
2f
e4
b5
d5
f7
2a
3c
a9
f9
31
d8
e3
e1
29
40
5e
ec
4c
7f
aa
ea
55
05
10
04
11
0e
fb
de
00
11
19
05
f2
e5
fd
fc
f5
f3
25
ff
e5
e3
cd
81
b7
e4
8f
9c
34
29
09
05
44
0c
f6
10
19
17
34
24
b2
08
0f
df
c5
d2
09
f1
f7
10
0c
ee
ff
13
1c
13
f5
fb
06
06
00
f1
01
14
ef
e7
1b
1c
e6
00
23
25
1f
ff
1b
0f
18
07
fc
1f
07
fa
fc
00
09
fe
d9
ef
06
16
1c
f9
00
04
e2
ed
fd
80
c4
cc
24
06
16
18
f5
fe
39
18
08
6a
27
1a
40
19
0b
17
e3
0a
10
04
f4
10
e5
e3
00
ef
fa
04
ef
f0
f0
ed
ff
0c
fa
14
d2
17
06
bb
c9
e8
dc
f9
f0
0b
f0
a8
1b
20
18
f9
e5
ee
17
09
06
30
0e
52
d1
c1
e6
e5
e8
27
db
cb
b6
1d
ed
f5
40
ee
ea
43
2c
20
ea
e3
16
f3
dd
c8
c4
b6
d4
f0
ba
d2
f2
e2
e2
43
2a
2a
d4
f3
fc
ff
d5
e1
f9
1e
f5
c2
ea
e9
c2
d2
e2
79
53
71
74
7f
77
d7
10
37
ec
ee
0d
f8
ed
0a
12
06
0e
f9
f1
0e
16
ee
fa
ff
e6
b5
d1
f0
aa
e2
e5
80
e9
d8
2c
00
c7
0a
0c
ee
0d
03
e4
23
fb
c3
08
33
f1
14
eb
0c
29
ea
05
0a
e8
0d
19
fd
0a
2c
f9
04
07
f0
fe
1c
0a
cc
e9
f0
b1
b6
1a
e4
db
0d
09
14
0e
02
f6
0a
13
f6
16
fc
10
f0
ed
01
fd
1c
17
06
f1
0c
c8
df
0b
80
af
d1
1d
0d
0c
37
fa
fe
24
ff
0c
51
19
38
32
f3
2c
e8
04
14
0d
f6
f0
f6
de
fd
fc
04
0d
f4
ed
01
f6
f4
10
00
fa
04
c7
0f
02
d4
00
13
0c
12
15
13
1b
06
d7
d4
e8
2a
0c
f1
f5
f9
0b
da
db
d5
33
30
0a
f7
fa
fb
fe
ec
f4
05
05
0e
fb
fc
de
01
c8
c5
0f
1d
25
c7
da
0d
da
aa
c8
2e
c3
d0
0d
1a
32
cf
cc
d5
18
1a
ee
f4
1b
2d
d5
dc
db
39
22
f8
30
34
50
2b
2b
22
f3
b7
80
d8
cd
c6
c1
fd
f6
20
18
07
ca
0e
46
38
43
2f
46
00
05
f4
0e
1e
11
f2
94
e9
b0
bd
cb
f5
c8
8c
b0
e9
dc
ed
fb
b7
8a
80
b2
0b
06
56
02
f3
f8
f5
f9
14
29
26
02
1a
e1
cf
fa
f5
2f
38
27
0d
f4
e1
60
e3
a8
9b
00
67
24
34
20
e7
22
ec
12
0b
03
09
f3
c9
15
3e
34
34
eb
f9
da
f4
17
01
b7
87
ca
c6
94
dc
95
c8
ee
18
1f
0d
39
0c
58
24
06
27
17
cf
74
e3
ad
31
2a
ea
0b
22
11
0a
f9
14
06
03
f7
00
18
12
fd
d6
e5
dc
f2
f2
36
5f
7f
fd
29
39
c7
df
5d
4e
35
ee
38
1d
d1
34
df
c1
12
d4
bb
04
cf
ea
ec
9b
e9
ee
da
0a
e6
ef
08
02
12
f8
15
39
0c
20
25
fe
16
f6
9a
0f
2e
1b
3b
4a
dc
52
1f
80
36
fb
d3
3b
00
e4
0a
cb
f1
0a
0c
e5
39
0b
05
fb
cc
11
b7
eb
d1
b5
bd
a8
08
cc
b4
f0
e7
fd
ff
10
1b
df
f6
06
fe
08
02
01
1d
17
cc
e3
08
14
f9
f1
05
e5
de
fe
d4
22
ec
00
f4
f1
e6
ec
e1
dd
d0
c5
a7
97
a6
d1
cf
9a
a7
e2
e2
03
fc
0b
19
27
fb
f4
fe
09
04
f8
06
20
0e
e1
0f
f3
f7
c9
80
e4
08
18
4a
3f
19
f7
1f
0e
26
0c
1a
ff
28
1f
13
10
f6
26
fd
0b
fc
fb
fd
fd
05
01
ff
f3
d8
fb
db
a4
c6
f2
fa
c8
f0
ff
cd
f1
ff
80
ec
f3
cb
ed
e5
e3
18
12
21
1d
13
10
08
11
0a
00
f8
11
05
07
0e
14
14
18
fe
01
a5
9d
e0
bb
a9
10
a1
95
f5
a1
f5
08
d6
1b
20
f9
1d
f3
00
13
21
1c
1a
fc
f7
00
80
25
13
da
2c
de
e1
f3
e5
23
8f
aa
00
82
f7
0f
d2
03
13
83
f1
30
aa
32
4f
2c
3b
1c
f0
1e
18
05
0a
f4
f5
f7
b8
f1
22
14
18
1d
f4
16
06
92
a8
c0
26
c9
de
01
ea
e1
bd
f4
c5
ab
38
f5
e6
39
1f
36
20
e9
c2
14
f4
0f
24
2c
7f
3a
00
d8
d9
af
22
cb
a7
c6
36
ef
cc
35
34
24
5b
21
3e
00
1c
f6
f4
d8
05
3c
df
0a
f5
c4
b6
fa
21
ea
40
3e
5a
02
a5
a7
2a
1c
e3
09
0a
5f
8a
ec
63
1e
bc
9c
1c
60
59
