15
14
f5
a8
bc
08
e9
2d
68
f0
e6
37
24
0f
fb
10
c3
ff
c1
ed
1f
af
da
2d
0d
37
54
a9
d6
35
01
e2
0a
5c
1d
0d
dc
fd
07
23
07
ec
7f
05
df
e2
fd
2a
be
da
03
e0
12
3e
f1
e5
fd
d4
10
f6
20
04
f0
9c
db
0b
0c
d4
f1
5b
04
13
d9
0d
03
ba
c7
ef
be
fc
3f
25
1a
17
0e
27
0b
c1
fb
16
12
07
14
fe
fa
14
15
18
0a
42
38
05
45
04
14
c5
8c
09
f2
0f
25
0a
0e
bb
12
10
9b
0a
f7
1a
35
e4
ff
1d
e8
f3
54
27
df
0e
0b
34
d1
13
38
0f
0f
0e
db
c7
25
33
3e
25
ec
fb
bb
d6
d6
eb
ca
01
45
52
30
05
14
ff
e3
10
fe
b1
2a
14
e7
a6
ae
ae
d5
17
45
22
0d
d2
08
e5
c8
20
09
1a
0c
ea
0e
10
e1
0a
45
f8
f9
a5
a5
99
a3
d0
cd
e9
fa
77
0f
ee
f8
e8
10
ef
14
f5
ca
10
2a
18
f0
ed
f3
2a
1b
1b
10
f5
d8
dc
e6
e6
80
db
2d
bb
bf
e8
f6
fe
0d
f2
37
43
f6
da
cc
03
02
df
00
f1
fd
2c
50
53
11
fc
2f
31
f9
d9
e2
e1
99
ea
09
f3
22
4b
62
1a
06
0c
17
0a
01
1f
20
e9
f0
04
39
17
fc
50
ea
16
ee
e9
0c
ee
fa
e7
f7
0d
10
5d
0f
4d
0d
19
03
fd
df
01
03
eb
07
23
a7
ef
f7
93
01
fe
46
42
35
2c
dd
f5
dd
c5
18
c9
ce
f0
ed
e2
09
e0
0f
34
ce
03
0d
9e
da
0e
82
c9
11
fe
07
ff
0d
f0
ef
db
06
2b
d8
e7
1f
cf
fd
15
03
20
f5
a5
d5
f2
a7
f7
f9
c3
ef
0c
3f
38
fd
38
0d
fa
0b
cf
22
e5
1b
f5
04
1a
f1
24
2a
24
d0
f6
fd
d4
ec
ff
eb
15
30
09
4a
33
dd
07
3a
80
ec
dc
3b
1d
22
55
2b
1c
09
ff
f4
df
e8
fc
c1
e8
13
02
29
13
1d
2c
3c
0e
05
1f
0d
f2
e8
ff
00
f7
04
ee
ec
00
f4
34
00
2e
4b
1c
07
0e
f4
09
e9
35
2a
33
ba
f5
dd
e9
eb
b8
1e
57
7e
11
12
07
12
d2
d4
1c
0d
fd
ec
08
cc
c4
25
e9
23
2a
d1
c1
d7
dc
c8
f0
e7
04
23
f6
0a
25
cc
d9
1c
25
3e
40
2b
e2
c9
eb
f0
d5
19
17
23
fb
d7
ce
cf
d3
df
e0
dd
4e
4c
16
3e
04
3e
79
38
ee
d7
ee
cc
f4
d0
2e
19
1f
2b
32
3c
f5
de
d2
0f
1d
f2
d2
12
ff
d6
d7
ba
f9
a8
bb
f1
e9
b9
f7
ed
c0
20
1b
19
12
12
da
d6
a5
81
d3
f0
eb
08
15
9f
ce
c6
ac
09
e5
ec
ff
01
e2
0d
11
df
f5
45
02
d4
0e
1c
ce
de
df
14
0d
0f
1d
19
f5
09
f7
11
0b
f9
05
93
bc
2f
ef
df
ff
1c
16
f0
cd
fc
12
21
1f
04
00
fc
fe
10
22
13
4c
15
fa
20
f1
ff
cb
db
ef
f5
0d
ef
24
21
e4
01
f6
e1
fe
08
02
ee
fd
2b
ed
f6
ec
41
20
15
2a
0f
00
81
d3
33
b5
cc
02
fc
fe
ea
11
fb
11
dd
f9
3b
f1
f7
02
11
fe
ff
f1
eb
01
0e
1e
fc
3c
2d
ec
ff
c7
e5
c3
00
26
d0
b0
c0
df
ee
d2
14
06
32
34
f3
f4
15
09
0b
08
fb
1c
70
46
0a
fe
e4
0b
e6
18
12
df
e0
f9
1f
22
23
00
f0
ea
ff
0f
44
05
1b
f2
17
31
12
c1
fb
ef
0b
26
22
f4
03
40
fa
dc
39
06
f3
03
15
21
da
f1
f3
f9
de
da
f4
09
f7
f0
b8
e3
e7
d9
0c
0b
f3
f3
23
11
22
20
e2
f7
e7
26
17
bc
0e
0b
16
ef
06
ef
f5
fe
f5
cb
f3
ce
d4
f1
dc
05
de
e3
cf
00
57
1e
2b
23
4c
30
c8
45
38
47
bd
dc
dd
0c
fc
e2
3b
49
3b
ea
ec
d6
c0
df
c8
c0
34
15
ff
17
1f
34
39
40
3f
3f
7f
10
05
04
45
33
e4
1c
1b
13
db
06
10
bd
cb
f8
fc
0e
d9
ed
f8
f9
10
26
44
ca
fd
f8
cc
f0
e5
3a
08
e2
d6
23
40
f1
0f
07
fb
00
e3
3d
fe
ee
1a
05
00
eb
1f
09
e8
06
35
fe
03
18
1e
00
f9
36
0a
17
31
fb
06
e9
e6
fb
30
05
d6
37
f5
08
1b
fb
14
01
10
29
03
14
05
fb
f3
cf
40
1e
11
16
f7
0a
ee
f7
fd
40
13
de
3d
09
de
f8
e1
f3
80
07
5e
e3
11
09
10
1b
df
07
f4
00
e0
ea
dd
ce
dc
e6
16
3a
0d
1e
02
fb
ea
08
ed
dd
d4
c6
e2
d6
f1
f4
f9
2d
fb
fa
00
e2
13
11
0c
15
f3
5c
1c
02
15
fe
fd
f2
06
19
21
f3
b9
d4
d5
e7
09
f9
00
f6
05
ea
ff
0f
fe
07
ed
f8
ad
2d
61
cd
1d
ef
15
0a
be
0d
cd
f0
eb
fd
dd
f9
2a
07
f4
01
19
ce
dc
ee
da
de
0a
1f
d6
95
00
f3
da
01
2b
5e
29
f7
bb
16
10
e6
14
f7
37
b7
1a
23
d0
08
f0
04
3c
46
2c
16
be
fd
e7
c6
2f
39
fd
0b
25
c2
ff
0a
0b
16
0d
09
d7
00
3a
c9
2f
4b
ff
f1
db
c7
1b
1e
13
0d
d4
13
2e
18
bb
19
cc
1f
13
d7
1e
13
25
74
39
0d
e2
df
ff
fd
96
d2
f7
e7
e7
0a
f8
01
d2
bb
f1
31
01
c0
de
dd
c4
30
23
1d
28
5c
4b
0d
11
c9
2f
f4
80
e6
0b
ef
0a
fd
e0
28
3c
64
d1
a5
ac
d3
d6
f8
2f
1c
2e
05
fc
fe
06
19
02
db
08
c4
ff
c7
a6
b3
df
23
20
37
7f
04
fb
da
12
27
0a
fe
0a
fe
f5
ea
08
3b
18
2f
f6
eb
fa
da
b3
b0
0b
11
10
0b
05
2f
e7
06
f6
0d
23
07
04
fa
d2
06
e8
fb
26
03
15
18
0a
1a
2b
0f
c0
e3
c9
da
07
19
52
c2
d4
de
12
09
13
fd
dc
df
ce
c7
e8
03
f0
06
14
0d
12
24
1e
2c
f8
fc
fa
18
12
de
ec
ed
b3
f6
2d
1b
15
f4
eb
d2
f8
08
ff
19
07
e2
16
bd
cc
12
3c
00
10
44
c5
03
ea
fe
ed
0a
fb
ef
15
e2
f4
14
10
cd
db
37
3c
1e
0c
00
d1
ef
05
1e
c5
f8
12
d9
18
1c
09
ea
ad
37
2e
fa
11
db
a6
2e
22
0d
03
18
19
25
24
f3
3a
16
13
fc
05
fe
ee
37
25
2f
f9
ec
45
01
ff
24
23
e0
e7
05
01
f8
ef
11
09
f7
0a
3f
30
33
0f
1f
28
e8
fd
f7
06
df
99
26
41
f6
27
f0
ca
20
2c
21
25
1f
e3
e1
f6
f4
fa
05
fb
19
04
01
1a
05
f8
01
d7
2f
80
f4
fd
8d
f4
f1
04
0a
1c
db
ba
c3
d4
de
f7
c9
e0
02
03
e9
04
08
e5
f4
fe
ef
18
24
e9
e8
07
dc
e4
16
1a
ee
19
17
e6
f3
f1
da
f4
bc
d4
1f
fe
80
13
01
c8
28
09
b7
1f
1f
eb
18
0b
f8
2b
04
f0
30
1e
dc
13
0e
06
14
15
e0
07
04
fc
e7
06
03
23
0a
ce
08
18
fa
f3
0f
0d
12
df
bb
21
13
bd
f0
ef
00
05
d9
ac
12
f2
ac
01
0e
f8
11
01
b8
0b
fb
e5
eb
f4
07
17
16
e8
07
e6
00
30
fe
f0
09
d1
b2
f6
f2
e1
18
0d
1c
df
d8
c2
f6
e4
ef
f3
e8
08
ea
fd
a7
20
19
e8
14
0d
ed
08
e5
a2
1d
14
e8
f5
f0
35
04
e9
b6
ee
f7
ce
f6
16
1c
06
ae
8a
d9
c1
93
09
19
fc
1f
1b
b4
04
15
fb
02
fb
0a
f1
e2
0e
d4
ec
19
d7
d3
06
12
ff
09
f6
f7
12
1f
34
16
37
2d
28
e3
fd
30
ef
f0
e1
48
18
1b
1f
01
e9
41
20
e8
1b
0b
e1
f5
14
fc
5b
3c
0c
24
01
06
dc
d1
bc
3f
19
f5
f5
03
2d
0d
ef
16
03
ea
e2
19
08
06
ea
f3
00
39
21
1c
1b
e5
ad
e3
f6
fb
ce
e7
09
f7
0a
0e
27
13
0e
14
fa
01
17
fd
1d
19
16
2c
0a
0f
06
a8
f5
d8
dd
2a
0d
e4
21
24
eb
e4
00
80
b0
f0
de
1b
0e
eb
09
2e
13
00
f9
15
df
bf
c6
b9
0c
20
e9
06
0e
f7
14
03
fb
ee
e7
f1
bb
14
fd
f8
ed
44
52
e8
d5
e6
da
29
5a
7d
eb
0a
37
ed
10
20
d9
00
24
fc
0e
c9
ee
2c
0e
35
da
23
0d
e9
f2
e4
f6
08
ee
c7
32
1f
ff
28
e5
23
35
c6
f1
1f
30
42
df
f7
0e
0f
10
ee
4b
31
cb
13
f7
bf
01
f6
d8
43
2e
f9
10
14
de
20
fa
08
e6
f9
77
db
03
18
e1
01
d0
02
d6
f9
b8
de
bd
d5
fa
b4
47
33
0c
ee
0f
dd
ed
e4
f2
f1
01
ee
4d
be
fd
26
13
6f
ff
e9
f6
e6
e3
80
19
09
a1
4b
20
e6
2a
df
f9
01
b3
ca
12
1c
93
fc
bf
cb
e1
28
14
f5
da
07
f4
14
22
08
08
e2
ea
ff
f1
05
ff
30
dd
ca
cd
4a
12
12
3b
d7
f0
1c
27
1f
26
19
03
29
ff
0e
c0
e4
03
05
17
32
06
0d
f1
ab
f2
ee
36
10
12
36
0f
ec
f2
14
1b
22
06
ec
2c
20
1c
8e
d4
b9
12
07
39
f8
0d
3b
e3
eb
0e
1e
f8
1c
12
f1
01
d4
f0
f6
26
fb
df
2b
f7
ba
c5
bb
e6
e0
cc
ea
02
1b
35
f5
e2
ae
0f
d8
0c
0b
01
23
fe
0d
28
21
cf
e7
3a
10
fd
7f
2b
34
00
fd
1a
13
2f
3c
b9
aa
f9
09
f4
2b
f9
0d
2b
e8
10
03
e0
18
48
ed
ee
48
46
08
13
2d
08
1b
24
1a
da
87
af
ac
33
fc
a2
27
0c
06
4b
1b
e5
07
11
29
e8
ed
fe
e7
dd
09
e8
40
eb
31
e2
96
fb
fc
15
0c
2d
11
24
f4
cc
f3
cf
dc
2e
13
27
35
0f
05
e3
e6
eb
0e
07
e5
2d
03
cb
4c
dc
a3
11
12
1d
17
16
15
e3
0d
ea
29
25
17
61
fe
0c
da
da
d8
e4
30
f8
38
00
9d
47
1a
e6
33
dd
d1
d5
ed
19
fd
d2
c9
2e
24
f8
17
d6
eb
e1
0a
e2
50
12
fe
e1
f6
2e
01
3c
17
f4
d6
80
29
f4
c0
12
cc
cb
2e
1a
00
bb
05
18
b8
ee
f0
24
e1
c7
ae
f3
14
34
02
23
fc
03
00
16
f4
de
1f
94
a1
b2
ad
95
df
06
17
fb
11
f8
1e
0a
03
19
11
01
fc
01
14
c4
b0
80
f5
21
3e
ec
16
21
ee
fc
f7
11
fc
f8
fe
fd
fd
00
dd
fd
2f
f4
0c
34
0c
16
cb
b2
ce
e6
ff
0a
04
fa
db
ec
0d
10
fb
15
11
ef
09
17
e7
f3
f7
22
f0
07
10
fd
05
a9
9c
a4
b5
bf
f5
f7
19
0d
c8
dd
0c
01
fd
26
04
e6
da
d3
c8
ec
f6
15
1c
0c
03
0c
e7
f0
07
2a
09
07
20
fc
26
01
ff
d8
f2
1f
07
0b
0f
e7
03
f9
1a
13
01
24
0b
fd
04
cf
d8
0d
f0
0e
39
36
34
14
0c
ef
15
18
ff
05
0b
f2
00
38
4e
57
d9
0e
cd
06
17
1d
29
33
0b
32
0a
dc
06
f3
ea
68
22
20
ec
0b
02
02
08
18
32
1f
03
da
e3
09
fe
20
ef
0f
2c
ea
de
fb
ee
f2
fe
2e
28
0e
29
bf
fa
ff
07
25
40
46
18
e1
fe
e6
a4
25
ef
bd
1e
49
3e
eb
19
03
0d
0f
1f
7f
36
28
f6
f5
da
c4
b4
f5
0b
e8
cb
11
ec
b7
33
18
32
3c
63
27
0b
24
ef
0a
fd
e4
bc
3a
f0
0a
32
d2
f8
a0
d9
0f
d3
db
d0
d4
0b
a5
db
2c
1f
f8
d2
2c
e9
af
46
da
b1
0a
2e
f9
35
fa
e8
de
b3
de
0b
f7
d8
08
18
d7
f3
2a
41
08
e5
e9
f1
bc
b2
ea
fe
bc
16
16
ad
b7
04
b6
d5
e1
fa
b2
13
b7
a3
98
cd
95
0b
de
f3
bf
0d
cb
c8
ab
d9
ed
f9
13
c0
ce
2e
b4
18
ec
0f
22
b3
f8
95
0f
bf
f6
f2
f1
ed
1f
c7
ee
2f
ff
0b
1e
e1
f0
e9
d9
3f
c9
cc
15
de
12
fe
11
fb
80
a9
be
cf
ab
c2
a3
4e
cf
f1
12
d7
ec
e8
ae
e1
e6
0f
09
1b
da
c9
1f
3b
b2
1f
34
1c
ba
22
fc
da
e7
dd
1f
bd
e2
fa
d9
01
cf
fe
b5
fb
2b
22
11
18
d1
0e
f0
e7
ae
bd
d3
c9
18
d6
bb
cb
c5
0d
c6
e3
ba
00
34
13
14
1a
f4
07
06
00
23
4a
ec
c8
be
2e
23
e9
00
fe
e1
f8
2b
f1
40
46
25
16
0d
32
ba
9f
db
20
29
04
22
23
05
0e
f8
01
5d
fe
10
d6
18
24
d6
00
12
e6
2e
3d
24
3a
3d
19
07
0d
0a
f4
f0
00
28
ce
1b
2d
c6
48
1e
32
ed
08
1a
03
0f
09
23
19
32
f6
dd
1a
00
d8
06
b6
cf
f3
02
0f
05
40
2b
e6
e0
fc
e6
0a
2a
2e
ff
15
1a
1a
9e
f4
ed
e1
1c
27
33
fb
bf
d1
dd
15
cf
2f
d2
80
da
f4
f5
d0
f1
02
09
1d
01
e2
ff
e4
e7
29
22
1a
ee
d2
9b
26
2b
28
0a
1a
0a
05
1c
f2
66
3d
97
16
de
f0
f7
d2
44
e5
2f
7d
1b
fd
f9
2a
fa
cd
4d
46
0c
0e
01
01
da
d7
72
ef
ef
32
13
0c
21
3f
16
13
1e
e8
35
ff
e1
11
45
1f
1c
34
e5
bb
fe
fc
03
f5
d4
5e
ef
12
4d
e6
e7
1d
40
fa
e8
e1
fd
5c
fc
1e
30
3d
2e
29
61
5a
85
12
fc
81
bf
06
6e
0f
d8
93
31
1d
0f
38
f1
e8
f0
f9
0b
11
10
e9
1a
f6
2e
25
e7
54
03
53
36
04
e3
ce
61
2c
c9
41
1b
df
cc
96
ea
da
0a
06
30
e5
f5
3a
29
b4
02
0b
3b
24
fb
60
f5
d9
19
14
e1
f7
09
0f
ef
14
03
00
1f
ad
f6
ee
d7
22
fb
e8
40
60
1b
fa
ec
d9
f9
42
47
0b
14
df
b2
c8
a4
f7
f7
c3
36
f7
f5
e5
1f
0c
fd
04
f6
e2
21
2d
f3
09
00
f6
08
31
19
de
b1
9d
ee
e8
2c
e3
0f
51
06
dd
ed
20
f3
0f
0b
17
f3
0c
0c
f6
e5
28
0a
b4
fd
e3
41
c2
aa
21
09
2f
d9
07
4c
dc
b6
ea
f5
fc
11
2b
14
df
eb
c7
08
d3
07
fd
29
42
32
2d
f0
0b
00
da
e2
3e
15
19
f1
cd
8b
f6
b9
80
27
05
06
e8
ef
f6
07
1a
06
1d
36
f8
dc
f4
7d
e9
df
45
40
1d
ef
03
d5
dd
2f
1f
28
dd
2a
e4
c2
d2
e1
c9
09
fb
d4
dc
e6
01
00
ff
04
e2
f0
52
0c
27
af
cf
02
f1
e6
e0
fe
13
f4
e6
fd
0b
10
0c
15
e9
f5
fc
29
26
12
32
20
f6
00
4b
ff
be
f6
1b
2e
0b
1b
de
0b
f7
0f
ff
10
f9
08
1c
17
f0
42
1a
33
e4
31
12
f5
0a
2f
f1
d8
0c
47
da
01
f3
f7
03
fa
de
2c
19
e5
30
42
81
ad
d2
03
15
f1
04
0b
06
ed
f9
ff
3e
16
06
bb
f4
fc
15
3b
15
b2
e1
db
0c
3a
37
db
1f
55
f5
f1
f5
ec
12
18
00
06
49
4c
2f
f2
02
20
01
13
ef
23
df
23
25
17
1b
1b
99
ce
d4
1b
41
2b
f5
15
80
08
e2
d4
00
12
f9
e6
e1
f7
4d
36
1c
2a
34
22
dd
d9
b8
df
ef
dd
f7
03
d6
ce
ee
32
02
0e
13
15
fa
cf
f5
d2
01
3c
2a
2e
42
2a
d5
fd
1e
12
c1
cb
20
f6
dc
f6
e4
d5
ea
2b
19
22
ed
ee
ee
10
dc
f2
12
0f
1b
fb
17
31
30
45
34
b4
c2
ba
d1
dd
bb
28
44
01
ea
f2
08
e0
03
fb
00
08
e4
1d
1b
26
0f
17
fb
dc
cf
cc
77
41
36
31
3e
c1
e2
15
03
08
df
1b
fa
e0
b9
0a
c9
f3
37
43
44
05
3e
01
eb
b6
b2
f2
22
16
f9
e9
90
30
3f
4a
f0
e2
2f
0b
fd
4f
3b
29
16
00
fe
c7
7a
1b
c4
e0
f5
db
c1
14
37
1f
e3
e2
5a
27
01
ed
dc
d2
40
0f
c2
fd
2c
f1
ed
dd
01
50
41
07
c6
f6
e1
c2
18
1c
2a
10
00
28
2b
2a
e8
f3
dd
33
07
ea
07
0f
e7
f4
1b
f5
5b
21
2a
f2
19
f2
97
e0
e6
fb
bd
16
44
34
7f
34
04
d0
da
f7
26
e7
f0
f6
ff
f0
e9
02
fb
12
e9
08
0a
ed
fe
04
52
51
27
a6
e1
e6
09
45
3b
34
0a
2d
36
0f
f2
25
0b
b2
0a
23
08
fa
fd
00
dc
f1
fe
ef
24
37
db
c0
ae
27
0b
e6
f6
18
11
fa
18
22
e2
eb
ea
f8
f7
a2
22
13
e9
1c
da
eb
c2
f3
13
18
fd
14
19
1c
fd
03
1f
fc
e4
f6
f5
01
f0
2f
be
fb
25
fb
ec
0e
e7
d6
f6
e2
f3
23
29
fc
13
0a
11
06
09
eb
d7
2c
15
fa
d8
c8
e7
e4
eb
0a
1d
18
1c
ef
ed
ef
d8
c9
fb
11
fc
fa
da
ff
f7
40
45
ae
0d
e8
c7
24
f8
10
f6
05
e3
38
16
f3
fd
cc
af
e7
cb
c1
1e
07
f9
06
fb
ed
fc
dd
05
2a
10
12
7f
44
08
00
03
f4
2f
16
37
e4
d7
1f
e7
0e
1e
f1
24
29
0c
28
10
04
f0
0d
11
09
3c
0b
08
04
2b
0c
10
2b
03
ed
b2
b8
c5
3d
1a
0c
0d
07
12
ee
0c
36
db
18
0c
c1
f2
07
02
df
04
18
f8
e1
1b
19
07
2e
12
23
d9
f1
f8
e7
f1
22
1c
ef
04
ab
fd
0f
9c
cc
fa
01
08
ed
f3
00
fe
dd
f0
16
1c
0f
0d
ee
04
0b
d6
02
06
e9
e4
13
cf
0a
01
81
e1
04
ff
ea
ec
15
e2
ee
3b
1f
fd
3a
54
22
fd
fe
16
c9
e4
f9
f1
0a
10
03
17
29
d3
e9
fc
c9
df
01
e6
09
28
ca
10
02
eb
d8
0a
27
1e
44
33
15
1d
3b
33
05
da
04
26
b1
d9
03
db
ba
0c
00
00
12
ca
f3
fc
b4
e9
36
b9
f4
f9
ce
de
f6
4f
14
ed
08
0b
19
f0
24
e5
10
18
08
a6
f6
ec
12
03
17
fd
e7
0f
d3
ed
08
05
da
f1
fe
fc
de
e0
04
08
fb
0b
da
fd
eb
01
e7
f8
e4
fd
f0
f7
da
d4
f3
fe
2a
31
07
12
1a
d8
f6
c4
21
08
ec
09
f3
e5
e9
0e
15
d6
eb
d3
ef
f3
f8
04
0a
e7
08
49
7a
f0
eb
f5
18
2a
dc
04
14
08
fa
fc
0e
ee
16
f9
1a
0e
0e
01
23
fb
e3
0b
e3
38
1b
07
01
1f
10
10
18
18
09
fa
32
34
19
26
1c
fe
c4
10
13
e3
fa
fb
0f
db
f0
06
1b
fd
81
15
1b
d4
15
32
10
0a
1d
1e
f5
ee
06
15
d6
f9
19
f2
e7
11
f2
01
f0
fa
fa
f2
fc
17
e9
f3
0c
14
f5
0c
0e
08
c5
15
d3
e3
fe
0c
0c
26
19
0f
12
03
f4
e4
11
fb
3a
08
1e
d0
0f
12
d7
19
0a
09
e8
ff
03
f8
dd
d5
08
12
fd
04
f1
f5
fa
11
f5
16
14
3f
24
0b
10
12
f6
cc
07
03
00
cd
b0
21
de
f1
fc
ed
f0
ed
1b
10
fd
19
12
ed
e8
f4
03
e8
db
04
f5
03
0b
16
06
0b
2a
4e
80
18
0f
cf
04
ec
d9
d2
cf
d6
d4
c5
ba
f3
11
eb
ec
f5
dc
12
16
08
08
11
f6
09
03
07
0b
07
2f
d2
be
02
ee
1e
06
02
fa
c7
f8
09
46
41
bf
ea
13
1b
99
ce
18
a5
b6
31
24
10
3f
29
10
e9
41
6b
4b
22
11
12
dd
d9
d7
2f
28
5c
00
f5
3d
28
0a
ba
d6
e4
29
1a
de
05
51
0c
f3
4f
7a
7b
19
2d
1a
fa
dc
f8
df
ed
33
0c
12
0c
17
de
c8
f3
f1
3d
ff
29
1e
42
2b
0c
6b
76
38
ce
ed
9d
c4
d7
0e
49
0e
e2
36
3d
35
f6
1f
2d
2e
43
05
09
13
45
f4
07
28
d8
8a
a7
26
e4
eb
05
05
0c
c6
cd
e4
eb
e3
2c
85
a9
04
ed
c0
f2
27
e1
ef
ff
e6
ed
5b
d0
81
4c
1c
44
ec
f6
53
09
39
4f
02
f3
0e
01
06
cd
f7
05
fd
35
2e
3f
ee
ef
f3
d9
0f
09
ca
df
ec
03
f4
07
ef
18
0e
24
15
11
f4
e2
01
05
04
14
0d
ff
dc
d7
e3
f0
09
13
0f
c7
e9
e3
cf
fe
fd
09
ff
07
28
15
06
c9
d1
cd
f9
11
1b
f3
0a
f3
fa
e6
db
07
06
14
ff
01
fe
a7
f2
d5
d5
eb
df
32
27
13
07
13
f6
05
fb
f6
dc
ff
ff
fb
09
d4
05
0b
02
f7
ed
fc
f5
fb
e4
d1
1c
13
80
f8
18
1c
30
1b
1c
0f
f6
1d
16
0d
df
ea
be
ef
11
15
cf
e6
ff
04
f5
e9
f5
08
03
d0
e5
1b
3b
12
27
f1
f4
01
04
f0
e1
e5
e6
b8
da
b5
cc
89
be
27
e1
38
3a
0a
e0
c4
e8
e9
06
f7
0e
3b
f6
81
ad
e5
cc
0d
14
4c
10
d5
16
05
fa
2e
1d
07
20
08
2c
2c
e5
17
13
e6
dd
2d
00
af
cd
3d
a3
e7
fe
df
43
10
d1
07
00
e9
1f
10
f9
18
09
f1
13
ec
e2
10
06
ca
1f
12
d8
9a
bf
d1
9a
27
27
35
fa
d3
0f
7b
a4
1c
2e
9a
da
21
f8
f9
1b
de
1e
15
d7
0f
ef
70
06
cb
27
c3
f9
80
ef
1c
de
b7
fd
e7
c6
cb
d0
da
dc
d6
04
1c
d4
04
24
ca
10
11
23
0d
3f
ea
02
14
f9
e3
f8
e4
04
36
c4
e3
ee
f1
20
0a
c3
cb
0b
9b
9d
35
ce
cf
3e
9c
80
c5
27
f9
de
39
b9
97
33
1c
af
b9
e3
af
b6
b6
b5
e4
a7
22
a5
c1
0b
9b
da
03
9a
a8
9d
b2
cc
15
2b
27
df
91
22
c0
05
cd
ff
2b
da
e2
95
0a
13
cd
c1
47
25
e6
bf
f6
19
1d
30
d7
b4
3d
32
a8
17
b4
e3
25
c1
f0
e4
f6
c2
ee
98
bb
33
ba
fe
e1
e6
34
cd
ed
9c
cd
c6
d8
dc
8b
cd
3a
d8
fb
4b
a2
23
e9
13
2f
0b
f3
c2
09
c6
de
91
d9
c4
83
a2
32
db
9f
16
ba
b0
b9
da
18
d0
2b
36
e5
9c
d5
18
28
db
3f
95
e5
e0
0d
98
d9
