2c
42
c0
2e
27
fc
31
bd
e3
d4
f3
2b
54
f7
17
33
22
19
e1
19
ef
f1
fb
80
ea
c6
f9
ce
35
d5
c3
de
aa
08
51
25
e0
02
fd
f7
d6
e2
4d
f2
d9
53
81
3c
3c
05
c4
04
5c
00
a9
f0
45
4b
c0
0b
98
21
cf
d9
08
70
6a
ef
87
bd
80
47
55
f0
38
df
88
ab
13
bb
1f
1c
42
4f
d3
a5
5f
8a
30
c8
29
15
1c
06
d7
d8
1b
8c
2d
95
08
43
8e
ce
ae
29
18
f2
01
86
bd
80
f6
22
f8
14
a2
c3
ac
09
d2
69
24
09
16
e7
dd
04
f9
28
d7
da
2a
be
02
1f
3a
27
b5
07
e8
29
38
1f
bf
15
0f
1b
2b
fa
80
36
0f
c5
cf
22
d2
4c
b4
17
d2
e2
90
01
f9
5a
39
5f
10
e4
cd
f7
75
b0
e5
65
24
32
34
94
cb
cc
3c
3d
8f
47
30
81
ce
ca
4c
dc
21
2b
13
e1
32
e5
0f
41
e9
dd
14
bc
5a
b4
ea
13
2e
06
ec
e0
1f
1c
70
da
90
a1
fe
1c
d2
81
48
18
a4
ba
3d
dc
02
ef
de
af
0a
f5
cf
84
01
54
fb
de
dc
09
26
eb
38
41
0f
10
37
fc
17
0a
19
10
80
f3
ec
dc
fa
9b
03
e8
fc
08
c7
33
80
4c
04
0c
a3
da
1f
fc
22
fa
21
ef
b0
0b
c9
e7
e3
26
25
9a
2b
20
ff
c2
a1
50
42
22
1a
e5
f7
22
0e
03
e1
e1
61
01
d1
05
fd
ce
80
2d
e0
eb
17
d6
29
3c
14
43
14
f3
